{
  "vocab": [
    "<pad>",
    "<bos>",
    "<eos>",
    "<unk>",
    "!",
    "#",
    "(",
    ")",
    "*",
    "+",
    ",",
    "-",
    ".",
    "/",
    "0",
    "1",
    "2",
    "3",
    "4",
    "5",
    "6",
    "7",
    "8",
    "9",
    ":",
    ";",
    "=",
    "?",
    "A",
    "B",
    "C",
    "D",
    "E",
    "F",
    "G",
    "H",
    "I",
    "J",
    "K",
    "L",
    "M",
    "N",
    "O",
    "P",
    "Q",
    "R",
    "S",
    "T",
    "U",
    "V",
    "W",
    "X",
    "Y",
    "Z",
    "a",
    "b",
    "c",
    "d",
    "e",
    "f",
    "g",
    "h",
    "i",
    "j",
    "k",
    "l",
    "m",
    "n",
    "o",
    "p",
    "q",
    "r",
    "s",
    "t",
    "u",
    "v",
    "w",
    "x",
    "y",
    "z",
    "▁",
    "▁!",
    "▁#",
    "▁(",
    "▁)",
    "▁*",
    "▁+",
    "▁,",
    "▁-",
    "▁.",
    "▁/",
    "▁0",
    "▁1",
    "▁2",
    "▁3",
    "▁4",
    "▁5",
    "▁6",
    "▁7",
    "▁8",
    "▁9",
    "▁:",
    "▁;",
    "▁=",
    "▁?",
    "▁A",
    "▁B",
    "▁C",
    "▁D",
    "▁E",
    "▁F",
    "▁G",
    "▁H",
    "▁I",
    "▁J",
    "▁K",
    "▁L",
    "▁M",
    "▁N",
    "▁O",
    "▁P",
    "▁Q",
    "▁R",
    "▁S",
    "▁T",
    "▁U",
    "▁V",
    "▁W",
    "▁X",
    "▁Y",
    "▁Z",
    "▁a",
    "▁b",
    "▁c",
    "▁d",
    "▁e",
    "▁f",
    "▁g",
    "▁h",
    "▁i",
    "▁j",
    "▁k",
    "▁l",
    "▁m",
    "▁n",
    "▁o",
    "▁p",
    "▁q",
    "▁r",
    "▁s",
    "▁t",
    "▁u",
    "▁v",
    "▁w",
    "▁x",
    "▁y",
    "▁z",
    "\n",
    "-a",
    "▁be",
    "er",
    "an",
    "▁th",
    "at",
    "ar",
    "es",
    "or",
    "ul",
    "in",
    "on",
    "al",
    "om",
    "-e",
    "ve",
    "ow",
    "ig",
    "is",
    "ult",
    "ou",
    "ap",
    "en",
    "▁we",
    "ay",
    "▁res",
    "▁result",
    "ee",
    "▁st",
    "▁if",
    "ot",
    "id",
    "ig-a",
    "▁big-a",
    "se",
    "ag",
    "ave",
    "▁A:",
    "▁than",
    "▁wh",
    "oo",
    "▁have",
    "il",
    "▁this",
    "le",
    "▁that",
    "rap",
    "▁par",
    "▁##",
    "▁###",
    "▁parag",
    "▁paragrap",
    "▁paragraph",
    "▁by",
    "▁bec",
    "▁not",
    "ore",
    "e.",
    "▁fr",
    "ic",
    "ut",
    "▁and",
    "son",
    "▁su",
    "▁re",
    "it",
    "ac",
    "ome",
    "▁did",
    "▁ta",
    "ain",
    "ood",
    "▁more",
    "▁mal",
    "▁Q:",
    "▁per",
    "▁mal-",
    "▁person",
    "ist",
    "▁one",
    "st",
    "e-a",
    "ill",
    "app",
    "▁what",
    "ang",
    "▁happ",
    "any",
    "use",
    "▁di",
    "▁can",
    "ly",
    "t-a",
    "im",
    "▁you",
    "▁ex",
    "igh",
    "▁ch",
    "▁tr",
    "row",
    "▁ste",
    "▁from",
    "ak",
    "▁sh",
    "▁beca",
    "▁because",
    "▁step",
    "re",
    "▁B:",
    "low",
    "▁me",
    "▁will",
    "ong",
    "l-a",
    "er.",
    "ad",
    "day",
    "ive",
    "oun",
    "og",
    "▁If",
    "ing",
    "▁chang",
    "am",
    "th",
    "ft",
    "▁happen",
    "▁rem",
    "▁exist",
    "d.",
    "▁seem",
    "▁stay",
    "▁remain",
    "▁to",
    "as",
    "▁10",
    "▁become",
    "ong-a",
    "▁mu",
    "ick",
    "▁change",
    "▁less",
    "y-a",
    "act",
    "if",
    "tr",
    "ight",
    "ater",
    "ide",
    "▁11",
    "▁good",
    "af",
    "▁ne",
    "e-e",
    "▁some",
    "▁add",
    "ine",
    "our",
    "y.",
    "▁sub",
    "-m",
    "▁div",
    "▁divide",
    "▁multi",
    "▁multip",
    "▁multiply",
    "el",
    "▁com",
    "▁subtr",
    "▁subtract",
    "▁12",
    "ol",
    "▁many",
    "▁tru",
    "s-a",
    "ant",
    "ur",
    "all-a",
    "e,",
    "▁how",
    "▁now",
    "ook",
    "▁soon",
    "▁sm",
    "▁so",
    "▁bl",
    "ple",
    "▁ear",
    "▁for",
    "▁all",
    "▁ta-m",
    "▁tw",
    "▁wr",
    "ir",
    "ct",
    "ear",
    "▁qu",
    "ix",
    "▁br",
    "▁pl",
    "▁thin",
    "now",
    "ik",
    "▁yest",
    "▁yester",
    "ake",
    "▁saf",
    "▁bo",
    "et",
    "▁two",
    "▁four",
    "▁oft",
    "▁often",
    "▁eas",
    "ogik",
    "ogiko",
    "ick-a",
    "▁sp",
    "▁small-a",
    "▁what?",
    "▁logiko",
    "▁mean",
    "y-e",
    "▁ever",
    "▁every",
    "arrow",
    "arrow-a",
    "▁mus",
    "▁yesterday",
    "▁tomor",
    "▁tomorrow",
    "ch",
    "ite",
    "ort-a",
    "▁six",
    "▁today",
    "ent",
    "▁with",
    "▁sun",
    "▁three",
    "um",
    "▁alw",
    "▁alway",
    "▁always",
    "▁ten",
    "▁person.",
    "▁ta-many",
    "▁long-a",
    "tain",
    "▁water",
    "▁cl",
    "▁sea",
    "▁win",
    "▁moun",
    "▁mountain",
    "▁narrow-a",
    "▁wide-a",
    "▁thin-a",
    "▁five",
    "▁thick-a",
    "▁fe",
    "▁few",
    "▁eight",
    "▁sever",
    "▁several",
    "▁short-a",
    "▁nine",
    "por",
    "port",
    "portant-a",
    "k.",
    "▁stor",
    "▁seven",
    "er,",
    "fore",
    "▁li",
    "▁te",
    "▁gr",
    "▁but",
    "▁of",
    "0.",
    "urn",
    "▁fal",
    "un",
    "▁shoul",
    "▁should",
    "▁good-a",
    "y,",
    "▁sometim",
    "▁sometimes",
    "▁later",
    "imple-a",
    "den",
    "▁important-a",
    "▁never",
    "aut",
    "fic",
    "ad-a",
    "▁flow",
    "▁co",
    "autif",
    "▁care",
    "▁caref",
    "▁careful",
    "4.",
    "ty-a",
    "▁fast",
    "oud",
    "▁make",
    "▁moon",
    "▁music",
    "gly-a",
    "autiful-a",
    "ful-a",
    "ous-a",
    "▁want",
    "▁learn",
    "an-a",
    "ficult-a",
    "8.",
    "6.",
    "▁snow",
    "anger",
    "angerous-a",
    "gh",
    "▁far",
    "▁real-a",
    "plex",
    "plex-a",
    "▁simple-a",
    "▁comp",
    "▁comput",
    "5.",
    "2.",
    "▁when",
    "▁earth",
    "▁before",
    "▁write",
    "▁mo",
    "▁dog",
    "▁well",
    "▁right-a",
    "▁may",
    "iet",
    "ark",
    "and",
    "▁wrong-a",
    "▁beautiful-a",
    "▁good-e",
    "▁food",
    "▁difficult-a",
    "▁bad-a",
    "▁useful-a",
    "▁safe-a",
    "▁ugly-a",
    "▁useless-a",
    "▁fast-e",
    "▁fire",
    "▁dirty-a",
    "▁false-a",
    "3.",
    "▁clean-a",
    "ing.",
    "▁burn",
    "▁new",
    "▁lo",
    "▁sc",
    "▁fake-a",
    "▁tim",
    "▁dangerous-a",
    "▁true-a",
    "▁easy-a",
    "9.",
    "▁pr",
    "ter",
    "▁slow",
    "7.",
    "op",
    "▁lat",
    "▁late-e",
    "▁quiet",
    "▁quiet-e",
    "▁say",
    "1.",
    "ien",
    "▁groun",
    "▁true-e",
    "▁quick",
    "▁quick-e",
    "▁now-e",
    "▁soft",
    "▁soft-e",
    "▁soon-e",
    "▁happy-e",
    "▁slow-e",
    "▁safe-e",
    "▁careful-e",
    "▁loud-e",
    "▁easy-e",
    "▁do",
    "ce",
    "▁summ",
    "▁rain",
    "▁corre",
    "▁correct",
    "▁correct-e",
    "▁early-e",
    "▁exam",
    "▁example",
    "▁example:",
    "▁mal-s",
    "▁sud",
    "▁sudden",
    "▁sudden-e",
    "ild",
    "▁year",
    "▁well-e",
    "ame",
    "▁de",
    "▁know",
    "▁where",
    "▁you.",
    "▁wood",
    "▁go",
    "▁root",
    "▁wor",
    "▁spr",
    "▁be:",
    "▁logiko?",
    "▁yel",
    "▁yellow",
    "▁morn",
    "uit",
    "▁teach",
    "▁spe",
    "▁fol",
    "▁follow",
    "▁sal",
    "▁dr",
    "ing,",
    "ather",
    "▁bu",
    "▁pap",
    "▁hill",
    "ass",
    "▁put",
    "▁eat",
    "▁news",
    "▁min",
    "▁minut",
    "ish",
    "▁story",
    "▁art",
    "▁need",
    "▁leaf",
    "▁mark",
    "▁plant",
    "▁boil",
    "▁end",
    "d,",
    "▁blac",
    "▁color",
    "od",
    "▁night",
    "d-a",
    "▁method",
    "▁method:",
    "▁1:",
    "▁2:",
    "▁3:",
    "▁4:",
    "▁5:",
    "▁6:",
    "▁autum",
    "▁autumn",
    "▁fruit",
    "▁star",
    "ect",
    "▁blu",
    "und",
    "▁river",
    "dom",
    "▁give",
    "one",
    "▁love",
    "▁wind",
    "ough",
    "▁freez",
    "▁sk",
    "▁salt",
    "▁fish",
    "ion",
    "▁farm",
    "▁hour",
    "os",
    "▁gar",
    "▁earth.",
    "ab",
    "▁happen.",
    "▁ju",
    "▁war",
    "▁mal-b",
    "▁build",
    "▁ta.",
    "▁knowle",
    "▁knowled",
    "▁knowledg",
    "▁life",
    "ck",
    "ate",
    "▁who",
    "▁hear",
    "▁bloom",
    "▁mean?",
    "▁anim",
    "▁animal",
    "▁hot-a",
    "▁remain.",
    "▁ban",
    "▁mist",
    "▁10,",
    "▁frien",
    "▁why",
    "▁I.",
    "▁9,",
    "▁seem.",
    "mon",
    "▁lib",
    "▁libr",
    "▁librar",
    "▁exist.",
    "▁air",
    "▁fut",
    "▁he",
    "ital",
    "▁leg",
    "▁pot",
    "▁7,",
    "▁8,",
    "l.",
    "▁bran",
    "▁branch",
    "▁4,",
    "▁6,",
    "▁2,",
    "▁sea.",
    "▁weather",
    "▁month",
    "▁drin",
    "▁3,",
    "▁read",
    "▁13",
    "▁12,",
    "▁5,",
    "▁mal-th",
    "▁how-m",
    "▁how-many",
    "m,",
    "▁sec",
    "▁secon",
    "▁even",
    "▁desert",
    "▁isl",
    "▁fi",
    "▁fiel",
    "▁drink",
    "o,",
    "ff",
    "▁dur",
    "▁during",
    "▁white",
    "▁11,",
    "▁happy-a",
    "▁gl",
    "▁ph",
    "▁around",
    "▁cliff",
    "▁mal-d",
    "▁past",
    "ph",
    "ey",
    "4,",
    "9,",
    "▁val",
    "▁meat",
    "au",
    "augh",
    "▁red",
    "▁speak",
    "▁blue",
    "▁stu",
    "▁trunk",
    "6,",
    "en.",
    "8,",
    "▁sin",
    "▁since",
    "▁mal-w",
    "-f",
    "▁pe",
    "▁think",
    "▁freeze",
    "▁time",
    "▁grass",
    "▁pro",
    "room",
    "1,",
    "5,",
    "ject",
    "▁melt",
    "▁vill",
    "▁villag",
    "7,",
    "air",
    "▁minute.",
    "ry",
    "2,",
    "▁dream",
    "▁same",
    "▁unt",
    "▁until",
    "▁noon",
    "eep",
    "▁kit",
    "▁kitch",
    "3,",
    "▁death",
    "b.",
    "▁winter.",
    "▁30",
    "▁frost",
    "qu",
    "▁thund",
    "▁14",
    "▁name",
    "▁just",
    "▁fam",
    "ato",
    "▁moss",
    "▁wal",
    "▁cit",
    "▁freedom",
    "▁market",
    "▁fact",
    "▁ro",
    "▁fern",
    "▁mountain.",
    "▁hos",
    "▁hosp",
    "▁mach",
    "▁24",
    "▁other",
    "▁paper",
    "▁20",
    "▁flower",
    "▁proces",
    "▁process",
    "▁mush",
    "▁tem",
    "▁spring,",
    "▁instr",
    "▁path",
    "▁36",
    "▁bright-a",
    "▁body.",
    "▁cloth",
    "▁grow.",
    "▁shine",
    "▁kin",
    "▁window",
    "▁40",
    "▁year.",
    "▁18",
    "▁man",
    "▁summer,",
    "▁museum",
    "▁brid",
    "▁bridg",
    "▁16",
    "▁cal",
    "▁storm",
    "▁warm",
    "▁wither",
    "▁15",
    "▁60",
    "▁knowledge",
    "a.",
    "▁place",
    "▁mushroom",
    "▁school",
    "▁hour.",
    "▁butter",
    "▁alth",
    "▁although",
    "▁sw",
    "▁sad",
    "▁mal-c",
    "▁machine",
    "▁there",
    "▁therefore",
    "▁stone",
    "▁deg",
    "▁48",
    "▁future.",
    "▁progr",
    "▁72",
    "▁sky",
    "▁lesson.",
    "▁music.",
    "▁scient",
    "▁scientist",
    "▁thr",
    "▁through",
    "▁help",
    "▁high",
    "▁we:",
    "▁kind.",
    "ung",
    "▁summer.",
    "▁autumn,",
    "▁sixt",
    "▁sixty",
    "▁be?",
    "▁scien",
    "▁daugh",
    "▁key",
    "▁screen",
    "-t",
    "▁verb.",
    "▁int",
    "▁into",
    "▁suff",
    "▁suffix",
    "▁iron",
    "▁own",
    "▁minute",
    "▁star.",
    "▁hole",
    "▁second.",
    "▁night.",
    "▁morning",
    "▁50",
    "ess",
    "▁artist",
    "▁lie",
    "▁80",
    "▁70",
    "▁animal,",
    "▁wom",
    "▁woman",
    "▁noun",
    "▁stop",
    "▁light.",
    "▁common",
    "▁common-a",
    "▁once,",
    "▁village,",
    "▁56",
    "▁cover",
    "▁bark",
    "▁hop",
    "▁beg",
    "▁thunder",
    "per",
    "▁cave",
    "▁student",
    "▁far-a",
    "▁anc",
    "▁house,",
    "▁brain",
    "or.",
    "▁forest,",
    "▁sil",
    "▁dolph",
    "▁dolphin",
    "▁90",
    "▁friend.",
    "▁66",
    "▁doct",
    "▁glass",
    "▁mal-wide-a",
    "▁island",
    "▁mal-thick-a",
    "▁friend",
    "▁sleep",
    "▁mal-sh",
    "▁mal-short-a",
    "▁hund",
    "▁hundre",
    "▁hundred",
    "▁bab",
    "▁54",
    "▁pow",
    "▁42",
    "▁instrum",
    "▁instrument",
    "ness",
    "▁35",
    "▁hist",
    "▁cloud",
    "▁21",
    "▁lake",
    "▁gir",
    "▁seed",
    "▁mal-n",
    "▁garden",
    "▁dan",
    "▁wis",
    "▁99",
    "▁valley",
    "▁mal-narrow-a",
    "▁fl",
    "ard,",
    "▁44",
    "▁exist,",
    "▁run",
    "▁hospital",
    "▁kn",
    "▁mal-l",
    "▁mal-long-a",
    "ail",
    "▁find",
    "▁return",
    "▁ancient",
    "▁mag",
    "▁magic",
    "▁28",
    "▁long-t",
    "▁long-tim",
    "▁long-time-ag",
    "▁long-time-ago,",
    "▁field",
    "▁mal-big-a",
    "▁22",
    "▁rise",
    "▁program",
    "▁wisdom",
    "▁mal-tall-a",
    "▁77",
    "▁45",
    "▁city,",
    "▁broth",
    "▁father",
    "▁die.",
    "▁mal-sm",
    "▁mal-small-a",
    "us",
    "▁tell",
    "▁eng",
    "▁mal-thin",
    "▁mal-thin-a",
    "▁mother",
    "▁aux",
    "▁auxil",
    "▁auxili",
    "▁96",
    "▁leaf.",
    "▁burn.",
    "▁33",
    "▁listen",
    "▁road",
    "▁thank",
    "▁63",
    "▁form",
    "▁tomorrow.",
    "▁jo",
    "▁tire",
    "▁17",
    "▁32",
    "▁84",
    "▁kitchen",
    "▁child",
    "▁foot",
    "▁begin",
    "▁sadness",
    "▁27",
    "▁house",
    "▁snow.",
    "▁was",
    "▁wash",
    "▁sand",
    "▁fall",
    "▁ai",
    "▁degree",
    "▁summer",
    "▁lang",
    "▁langu",
    "▁languag",
    "▁bank",
    "▁knif",
    "▁monk",
    "-qu",
    "▁sheep",
    "▁-1",
    "▁spring",
    "▁brus",
    "▁brush",
    "▁melon",
    "▁peach",
    "▁taste",
    "▁81",
    "▁yes",
    "▁mil",
    "▁55",
    "▁88",
    "▁onion",
    "▁factory",
    "▁49",
    "▁hell",
    "▁lemon",
    "▁25",
    "▁week",
    "▁leg.",
    "▁bean",
    "▁tower",
    "▁garl",
    "▁garlic",
    "▁glo",
    "▁orang",
    "▁heart",
    "▁coat",
    "▁science",
    "▁frog",
    "▁acr",
    "▁acros",
    "▁across",
    "▁fo",
    "▁hor",
    "▁work",
    "▁winter",
    "▁hat",
    "▁cat",
    "▁64",
    "▁goat",
    "▁bas",
    "▁bask",
    "▁basket",
    "▁bag",
    "▁noon.",
    "▁bott",
    "▁future",
    "▁nut",
    "▁tomato",
    "▁doctor",
    "▁bir",
    "▁forest.",
    "▁46",
    "▁daughter",
    "▁towar",
    "▁toward",
    "▁pig",
    "▁butterf",
    "▁sun.",
    "▁hair",
    "▁corn",
    "▁sn",
    "▁over",
    "▁under",
    "▁sug",
    "▁sugar",
    "▁ener",
    "▁energ",
    "▁chair",
    "▁auxiliary.",
    "▁teacher",
    "▁umb",
    "▁umbrel",
    "▁umbrell",
    "▁land",
    "▁land-f",
    "▁land-for",
    "▁land-form,",
    "▁higher",
    "▁window.",
    "▁eleph",
    "▁elephant",
    "▁month.",
    "▁chest",
    "▁season.",
    "▁86",
    "▁my",
    "▁spoon",
    "▁eag",
    "▁coal",
    "▁nood",
    "▁musc",
    "▁talk",
    "▁rab",
    "▁rabb",
    "▁rabbit",
    "▁pant",
    "▁pants",
    "▁bridge",
    "▁eg",
    "▁egg",
    "▁temple",
    "▁85",
    "▁evening",
    "▁41",
    "▁banan",
    "▁keep",
    "▁gold",
    "▁which",
    "▁sho",
    "▁sister",
    "▁along",
    "▁girl",
    "▁potato",
    "▁clim",
    "▁sun-",
    "▁sun-l",
    "▁sun-light",
    "▁justice",
    "▁tig",
    "▁soup",
    "▁vis",
    "▁visit",
    "▁coff",
    "▁word,",
    "▁bin",
    "▁bind",
    "▁togeth",
    "▁together.",
    "▁26",
    "▁or:",
    "▁adject",
    "▁soap",
    "▁second",
    "▁stom",
    "▁stomach",
    "▁wol",
    "▁wolf",
    "▁du",
    "▁chick",
    "▁century.",
    "▁oil",
    "▁cold-a",
    "▁boy",
    "▁23",
    "get",
    "▁cu",
    "▁cup",
    "▁no",
    "▁stud",
    "▁energy",
    "▁67",
    "▁about",
    "▁34",
    "▁lam",
    "▁lamp",
    "▁metal",
    "cite",
    "▁history",
    "▁copper",
    "▁desert.",
    "▁season:",
    "▁cliff.",
    "▁mir",
    "▁mirr",
    "▁62",
    "▁yellow.",
    "▁fox",
    "▁salt.",
    "▁century",
    "▁-2",
    "▁mal-simple-a",
    "▁clear-a",
    "▁liqu",
    "▁liquid.",
    "▁excite",
    "▁silver",
    "aw",
    "▁39",
    "▁plant.",
    "▁calc",
    "▁calcul",
    "▁calculate",
    "▁dat",
    "▁data.",
    "▁happen,",
    "▁mal-g",
    "ue",
    "▁autumn.",
    "▁bread",
    "▁skin",
    "▁19",
    "▁pot.",
    "by",
    "▁milk",
    "▁29",
    "▁family",
    "▁meat,",
    "▁95",
    "▁61",
    "▁box",
    "▁climb",
    "▁ham",
    "▁hamm",
    "▁mal-u",
    "▁mal-ugly-a",
    "▁fruit,",
    "▁69",
    "▁hope",
    "▁bloom.",
    "▁arm,",
    "▁43",
    "▁31",
    "▁hello",
    "▁89",
    "▁rice,",
    "▁head,",
    "▁37",
    "▁47",
    "▁rain.",
    "▁78",
    "▁97",
    "▁ref",
    "▁mal-wr",
    "▁mal-wrong-a",
    "▁82",
    "▁mal-cle",
    "▁mal-clean-a",
    "alth",
    "▁plate.",
    "▁betw",
    "▁between",
    "▁53",
    "▁health",
    "▁mal-eas",
    "▁mal-easy-a",
    "▁arm",
    "▁trunk,",
    "▁root,",
    "▁mal-re",
    "▁79",
    "-quar",
    "▁shir",
    "▁shirt",
    "▁cake",
    "▁screen,",
    "▁68",
    "▁monkey",
    "▁mal-r",
    "▁mal-right-a",
    "▁cloth.",
    "▁-3",
    "▁mal-real-a",
    "▁ride",
    "▁52",
    "▁57",
    "▁mal-useful-a",
    "▁person,",
    "▁study,",
    "▁lung",
    "▁brother",
    "▁remain,",
    "▁body,",
    "▁west.",
    "▁power",
    "▁98",
    "▁farmer",
    "▁juice",
    "▁mal-be",
    "▁mal-beautiful-a",
    "▁mal-dir",
    "▁mal-dirty-a",
    "▁veget",
    "▁vegetab",
    "▁vegetable",
    "▁cheese",
    "▁76",
    "▁body",
    "▁38",
    "▁75",
    "▁branch,",
    "▁fork",
    "▁laugh",
    "▁berry",
    "▁much",
    "▁keyb",
    "▁keybo",
    "▁keyboard,",
    "▁mem",
    "▁memory,",
    "▁processor.",
    "▁91",
    "▁93",
    "▁mal-dangerous-a",
    "▁92",
    "▁zer",
    "▁zero",
    "▁65",
    "▁mal-bad-a",
    "▁59",
    "▁nail",
    "▁banana",
    "▁94",
    "▁neck",
    "▁51",
    "▁vo",
    "▁voice",
    "▁instrument.",
    "▁58",
    "▁mal-true-a",
    "wor",
    "▁village",
    "▁village:",
    "▁orange",
    "▁mal-fal",
    "▁mal-false-a",
    "▁grape",
    "▁74",
    "▁table",
    "▁have?",
    "▁learn,",
    "▁bird",
    "-ej",
    "em",
    "▁glove",
    "▁lock",
    "▁snake",
    "▁mal-fake-a",
    "▁cap",
    "▁capital",
    "▁capital:",
    "▁bowl",
    "▁73",
    "▁mal-im",
    "▁mal-important-a",
    "▁flat-a",
    "▁wall",
    "▁roof",
    "▁110",
    "▁city",
    "▁city:",
    "▁duck",
    "▁bell",
    "▁horse",
    "▁83",
    "▁umbrella",
    "▁town",
    "▁town:",
    "▁twent",
    "▁twenty",
    "▁twenty-f",
    "▁twenty-four",
    "▁bed",
    "▁whale",
    "▁noodle",
    "▁farm.",
    "▁mal-saf",
    "▁mal-safe-a",
    "▁120",
    "▁seem?",
    "▁phone.",
    "▁peace",
    "▁71",
    "▁joy",
    "▁mal-difficult-a",
    "▁rice",
    "▁tea",
    "▁87",
    "▁rope",
    "▁chicken",
    "▁shad",
    "▁shadow",
    "▁shadow.",
    "▁sit",
    "▁owl",
    "▁butterfly",
    "▁coffee",
    "▁meat.",
    "▁bottle",
    "▁comb",
    "▁mal-good-a",
    "▁finger",
    "▁touch",
    "▁snow,",
    "▁hung",
    "▁wa",
    "▁wait",
    "▁108",
    "▁sweet-a",
    "▁room.",
    "▁shoulder",
    "▁remain?",
    "▁change?",
    "▁buy",
    "age.",
    "▁plate",
    "▁wheel",
    "▁reflect",
    "▁blood",
    "▁eagle",
    "▁market.",
    "▁candle",
    "▁mirror",
    "▁engine",
    "▁honey",
    "▁mal-com",
    "▁mal-complex-a",
    "▁letter,",
    "▁greeting.",
    "▁message.",
    "▁letter",
    "▁envel",
    "▁envelop",
    "▁envelope.",
    "▁old",
    "▁goodby",
    "▁goodbye",
    "▁tiger",
    "▁country",
    "▁country:",
    "▁sock",
    "▁exist?",
    "▁action",
    "▁surf",
    "▁surface.",
    "cor",
    "▁smel",
    "▁cre",
    "▁boil,",
    "▁museum.",
    "▁shoe",
    "▁sell",
    "▁phone",
    "▁tooth.",
    "▁language,",
    "▁word.",
    "▁exer",
    "▁exerc",
    "▁exercise.",
    "▁mistake.",
    "▁7:",
    "▁serve",
    "▁muscle",
    "▁-4",
    "▁-5",
    "▁happen?",
    "▁air,",
    "▁breath"
  ],
  "merges": [
    [
      "-",
      "a"
    ],
    [
      "▁b",
      "e"
    ],
    [
      "e",
      "r"
    ],
    [
      "a",
      "n"
    ],
    [
      "▁t",
      "h"
    ],
    [
      "a",
      "t"
    ],
    [
      "a",
      "r"
    ],
    [
      "e",
      "s"
    ],
    [
      "o",
      "r"
    ],
    [
      "u",
      "l"
    ],
    [
      "i",
      "n"
    ],
    [
      "o",
      "n"
    ],
    [
      "a",
      "l"
    ],
    [
      "o",
      "m"
    ],
    [
      "-",
      "e"
    ],
    [
      "v",
      "e"
    ],
    [
      "o",
      "w"
    ],
    [
      "i",
      "g"
    ],
    [
      "i",
      "s"
    ],
    [
      "ul",
      "t"
    ],
    [
      "o",
      "u"
    ],
    [
      "a",
      "p"
    ],
    [
      "e",
      "n"
    ],
    [
      "▁w",
      "e"
    ],
    [
      "a",
      "y"
    ],
    [
      "▁r",
      "es"
    ],
    [
      "▁res",
      "ult"
    ],
    [
      "e",
      "e"
    ],
    [
      "▁s",
      "t"
    ],
    [
      "▁i",
      "f"
    ],
    [
      "o",
      "t"
    ],
    [
      "i",
      "d"
    ],
    [
      "ig",
      "-a"
    ],
    [
      "▁b",
      "ig-a"
    ],
    [
      "s",
      "e"
    ],
    [
      "a",
      "g"
    ],
    [
      "a",
      "ve"
    ],
    [
      "▁A",
      ":"
    ],
    [
      "▁th",
      "an"
    ],
    [
      "▁w",
      "h"
    ],
    [
      "o",
      "o"
    ],
    [
      "▁h",
      "ave"
    ],
    [
      "i",
      "l"
    ],
    [
      "▁th",
      "is"
    ],
    [
      "l",
      "e"
    ],
    [
      "▁th",
      "at"
    ],
    [
      "r",
      "ap"
    ],
    [
      "▁p",
      "ar"
    ],
    [
      "▁#",
      "#"
    ],
    [
      "▁##",
      "#"
    ],
    [
      "▁par",
      "ag"
    ],
    [
      "▁parag",
      "rap"
    ],
    [
      "▁paragrap",
      "h"
    ],
    [
      "▁b",
      "y"
    ],
    [
      "▁be",
      "c"
    ],
    [
      "▁n",
      "ot"
    ],
    [
      "or",
      "e"
    ],
    [
      "e",
      "."
    ],
    [
      "▁f",
      "r"
    ],
    [
      "i",
      "c"
    ],
    [
      "u",
      "t"
    ],
    [
      "▁an",
      "d"
    ],
    [
      "s",
      "on"
    ],
    [
      "▁s",
      "u"
    ],
    [
      "▁r",
      "e"
    ],
    [
      "i",
      "t"
    ],
    [
      "a",
      "c"
    ],
    [
      "om",
      "e"
    ],
    [
      "▁d",
      "id"
    ],
    [
      "▁t",
      "a"
    ],
    [
      "a",
      "in"
    ],
    [
      "oo",
      "d"
    ],
    [
      "▁m",
      "ore"
    ],
    [
      "▁m",
      "al"
    ],
    [
      "▁Q",
      ":"
    ],
    [
      "▁p",
      "er"
    ],
    [
      "▁mal",
      "-"
    ],
    [
      "▁per",
      "son"
    ],
    [
      "is",
      "t"
    ],
    [
      "▁on",
      "e"
    ],
    [
      "s",
      "t"
    ],
    [
      "e",
      "-a"
    ],
    [
      "il",
      "l"
    ],
    [
      "ap",
      "p"
    ],
    [
      "▁wh",
      "at"
    ],
    [
      "an",
      "g"
    ],
    [
      "▁h",
      "app"
    ],
    [
      "an",
      "y"
    ],
    [
      "u",
      "se"
    ],
    [
      "▁d",
      "i"
    ],
    [
      "▁c",
      "an"
    ],
    [
      "l",
      "y"
    ],
    [
      "t",
      "-a"
    ],
    [
      "i",
      "m"
    ],
    [
      "▁y",
      "ou"
    ],
    [
      "▁e",
      "x"
    ],
    [
      "ig",
      "h"
    ],
    [
      "▁c",
      "h"
    ],
    [
      "▁t",
      "r"
    ],
    [
      "r",
      "ow"
    ],
    [
      "▁st",
      "e"
    ],
    [
      "▁fr",
      "om"
    ],
    [
      "a",
      "k"
    ],
    [
      "▁s",
      "h"
    ],
    [
      "▁bec",
      "a"
    ],
    [
      "▁beca",
      "use"
    ],
    [
      "▁ste",
      "p"
    ],
    [
      "r",
      "e"
    ],
    [
      "▁B",
      ":"
    ],
    [
      "l",
      "ow"
    ],
    [
      "▁m",
      "e"
    ],
    [
      "▁w",
      "ill"
    ],
    [
      "on",
      "g"
    ],
    [
      "l",
      "-a"
    ],
    [
      "er",
      "."
    ],
    [
      "a",
      "d"
    ],
    [
      "d",
      "ay"
    ],
    [
      "i",
      "ve"
    ],
    [
      "ou",
      "n"
    ],
    [
      "o",
      "g"
    ],
    [
      "▁I",
      "f"
    ],
    [
      "in",
      "g"
    ],
    [
      "▁ch",
      "ang"
    ],
    [
      "a",
      "m"
    ],
    [
      "t",
      "h"
    ],
    [
      "f",
      "t"
    ],
    [
      "▁happ",
      "en"
    ],
    [
      "▁re",
      "m"
    ],
    [
      "▁ex",
      "ist"
    ],
    [
      "d",
      "."
    ],
    [
      "▁see",
      "m"
    ],
    [
      "▁st",
      "ay"
    ],
    [
      "▁rem",
      "ain"
    ],
    [
      "▁t",
      "o"
    ],
    [
      "a",
      "s"
    ],
    [
      "▁1",
      "0"
    ],
    [
      "▁bec",
      "ome"
    ],
    [
      "ong",
      "-a"
    ],
    [
      "▁m",
      "u"
    ],
    [
      "ic",
      "k"
    ],
    [
      "▁chang",
      "e"
    ],
    [
      "▁les",
      "s"
    ],
    [
      "y",
      "-a"
    ],
    [
      "ac",
      "t"
    ],
    [
      "i",
      "f"
    ],
    [
      "t",
      "r"
    ],
    [
      "igh",
      "t"
    ],
    [
      "at",
      "er"
    ],
    [
      "id",
      "e"
    ],
    [
      "▁1",
      "1"
    ],
    [
      "▁g",
      "ood"
    ],
    [
      "a",
      "f"
    ],
    [
      "▁n",
      "e"
    ],
    [
      "e",
      "-e"
    ],
    [
      "▁s",
      "ome"
    ],
    [
      "▁ad",
      "d"
    ],
    [
      "in",
      "e"
    ],
    [
      "ou",
      "r"
    ],
    [
      "y",
      "."
    ],
    [
      "▁su",
      "b"
    ],
    [
      "-",
      "m"
    ],
    [
      "▁di",
      "v"
    ],
    [
      "▁div",
      "ide"
    ],
    [
      "▁mult",
      "i"
    ],
    [
      "▁multi",
      "p"
    ],
    [
      "▁multip",
      "ly"
    ],
    [
      "e",
      "l"
    ],
    [
      "▁c",
      "om"
    ],
    [
      "▁sub",
      "tr"
    ],
    [
      "▁subtr",
      "act"
    ],
    [
      "▁1",
      "2"
    ],
    [
      "o",
      "l"
    ],
    [
      "▁m",
      "any"
    ],
    [
      "▁tr",
      "u"
    ],
    [
      "s",
      "-a"
    ],
    [
      "an",
      "t"
    ],
    [
      "u",
      "r"
    ],
    [
      "al",
      "l-a"
    ],
    [
      "e",
      ","
    ],
    [
      "▁h",
      "ow"
    ],
    [
      "▁n",
      "ow"
    ],
    [
      "oo",
      "k"
    ],
    [
      "▁s",
      "oon"
    ],
    [
      "▁s",
      "m"
    ],
    [
      "▁s",
      "o"
    ],
    [
      "▁b",
      "l"
    ],
    [
      "p",
      "le"
    ],
    [
      "▁e",
      "ar"
    ],
    [
      "▁f",
      "or"
    ],
    [
      "▁al",
      "l"
    ],
    [
      "▁ta",
      "-m"
    ],
    [
      "▁t",
      "w"
    ],
    [
      "▁w",
      "r"
    ],
    [
      "i",
      "r"
    ],
    [
      "c",
      "t"
    ],
    [
      "e",
      "ar"
    ],
    [
      "▁q",
      "u"
    ],
    [
      "i",
      "x"
    ],
    [
      "▁b",
      "r"
    ],
    [
      "▁p",
      "l"
    ],
    [
      "▁th",
      "in"
    ],
    [
      "n",
      "ow"
    ],
    [
      "i",
      "k"
    ],
    [
      "▁y",
      "est"
    ],
    [
      "▁yest",
      "er"
    ],
    [
      "ak",
      "e"
    ],
    [
      "▁s",
      "af"
    ],
    [
      "▁b",
      "o"
    ],
    [
      "e",
      "t"
    ],
    [
      "▁tw",
      "o"
    ],
    [
      "▁f",
      "our"
    ],
    [
      "▁o",
      "ft"
    ],
    [
      "▁oft",
      "en"
    ],
    [
      "▁e",
      "as"
    ],
    [
      "og",
      "ik"
    ],
    [
      "ogik",
      "o"
    ],
    [
      "ick",
      "-a"
    ],
    [
      "▁s",
      "p"
    ],
    [
      "▁sm",
      "all-a"
    ],
    [
      "▁what",
      "?"
    ],
    [
      "▁l",
      "ogiko"
    ],
    [
      "▁me",
      "an"
    ],
    [
      "y",
      "-e"
    ],
    [
      "▁e",
      "ver"
    ],
    [
      "▁ever",
      "y"
    ],
    [
      "ar",
      "row"
    ],
    [
      "arrow",
      "-a"
    ],
    [
      "▁mu",
      "s"
    ],
    [
      "▁yester",
      "day"
    ],
    [
      "▁tom",
      "or"
    ],
    [
      "▁tomor",
      "row"
    ],
    [
      "c",
      "h"
    ],
    [
      "it",
      "e"
    ],
    [
      "or",
      "t-a"
    ],
    [
      "▁s",
      "ix"
    ],
    [
      "▁to",
      "day"
    ],
    [
      "en",
      "t"
    ],
    [
      "▁w",
      "ith"
    ],
    [
      "▁su",
      "n"
    ],
    [
      "▁th",
      "ree"
    ],
    [
      "u",
      "m"
    ],
    [
      "▁al",
      "w"
    ],
    [
      "▁alw",
      "ay"
    ],
    [
      "▁alway",
      "s"
    ],
    [
      "▁t",
      "en"
    ],
    [
      "▁person",
      "."
    ],
    [
      "▁ta-m",
      "any"
    ],
    [
      "▁l",
      "ong-a"
    ],
    [
      "t",
      "ain"
    ],
    [
      "▁w",
      "ater"
    ],
    [
      "▁c",
      "l"
    ],
    [
      "▁se",
      "a"
    ],
    [
      "▁w",
      "in"
    ],
    [
      "▁m",
      "oun"
    ],
    [
      "▁moun",
      "tain"
    ],
    [
      "▁n",
      "arrow-a"
    ],
    [
      "▁w",
      "ide-a"
    ],
    [
      "▁thin",
      "-a"
    ],
    [
      "▁f",
      "ive"
    ],
    [
      "▁th",
      "ick-a"
    ],
    [
      "▁f",
      "e"
    ],
    [
      "▁fe",
      "w"
    ],
    [
      "▁e",
      "ight"
    ],
    [
      "▁se",
      "ver"
    ],
    [
      "▁sever",
      "al"
    ],
    [
      "▁sh",
      "ort-a"
    ],
    [
      "▁n",
      "ine"
    ],
    [
      "p",
      "or"
    ],
    [
      "por",
      "t"
    ],
    [
      "port",
      "ant-a"
    ],
    [
      "k",
      "."
    ],
    [
      "▁st",
      "or"
    ],
    [
      "▁se",
      "ven"
    ],
    [
      "er",
      ","
    ],
    [
      "f",
      "ore"
    ],
    [
      "▁l",
      "i"
    ],
    [
      "▁t",
      "e"
    ],
    [
      "▁g",
      "r"
    ],
    [
      "▁b",
      "ut"
    ],
    [
      "▁o",
      "f"
    ],
    [
      "0",
      "."
    ],
    [
      "ur",
      "n"
    ],
    [
      "▁f",
      "al"
    ],
    [
      "u",
      "n"
    ],
    [
      "▁sh",
      "oul"
    ],
    [
      "▁shoul",
      "d"
    ],
    [
      "▁good",
      "-a"
    ],
    [
      "y",
      ","
    ],
    [
      "▁somet",
      "im"
    ],
    [
      "▁sometim",
      "es"
    ],
    [
      "▁l",
      "ater"
    ],
    [
      "im",
      "ple-a"
    ],
    [
      "d",
      "en"
    ],
    [
      "▁im",
      "portant-a"
    ],
    [
      "▁ne",
      "ver"
    ],
    [
      "a",
      "ut"
    ],
    [
      "f",
      "ic"
    ],
    [
      "ad",
      "-a"
    ],
    [
      "▁f",
      "low"
    ],
    [
      "▁c",
      "o"
    ],
    [
      "aut",
      "if"
    ],
    [
      "▁c",
      "are"
    ],
    [
      "▁care",
      "f"
    ],
    [
      "▁caref",
      "ul"
    ],
    [
      "4",
      "."
    ],
    [
      "t",
      "y-a"
    ],
    [
      "▁f",
      "ast"
    ],
    [
      "ou",
      "d"
    ],
    [
      "▁m",
      "ake"
    ],
    [
      "▁m",
      "oon"
    ],
    [
      "▁mus",
      "ic"
    ],
    [
      "g",
      "ly-a"
    ],
    [
      "autif",
      "ul-a"
    ],
    [
      "f",
      "ul-a"
    ],
    [
      "ou",
      "s-a"
    ],
    [
      "▁w",
      "ant"
    ],
    [
      "▁lear",
      "n"
    ],
    [
      "an",
      "-a"
    ],
    [
      "fic",
      "ult-a"
    ],
    [
      "8",
      "."
    ],
    [
      "6",
      "."
    ],
    [
      "▁s",
      "now"
    ],
    [
      "ang",
      "er"
    ],
    [
      "anger",
      "ous-a"
    ],
    [
      "g",
      "h"
    ],
    [
      "▁f",
      "ar"
    ],
    [
      "▁re",
      "al-a"
    ],
    [
      "ple",
      "x"
    ],
    [
      "plex",
      "-a"
    ],
    [
      "▁s",
      "imple-a"
    ],
    [
      "▁com",
      "p"
    ],
    [
      "▁comp",
      "ut"
    ],
    [
      "5",
      "."
    ],
    [
      "2",
      "."
    ],
    [
      "▁wh",
      "en"
    ],
    [
      "▁ear",
      "th"
    ],
    [
      "▁be",
      "fore"
    ],
    [
      "▁wr",
      "ite"
    ],
    [
      "▁m",
      "o"
    ],
    [
      "▁d",
      "og"
    ],
    [
      "▁wel",
      "l"
    ],
    [
      "▁r",
      "ight-a"
    ],
    [
      "▁m",
      "ay"
    ],
    [
      "i",
      "et"
    ],
    [
      "ar",
      "k"
    ],
    [
      "an",
      "d"
    ],
    [
      "▁wr",
      "ong-a"
    ],
    [
      "▁be",
      "autiful-a"
    ],
    [
      "▁good",
      "-e"
    ],
    [
      "▁f",
      "ood"
    ],
    [
      "▁dif",
      "ficult-a"
    ],
    [
      "▁b",
      "ad-a"
    ],
    [
      "▁use",
      "ful-a"
    ],
    [
      "▁saf",
      "e-a"
    ],
    [
      "▁u",
      "gly-a"
    ],
    [
      "▁useles",
      "s-a"
    ],
    [
      "▁fast",
      "-e"
    ],
    [
      "▁f",
      "ire"
    ],
    [
      "▁dir",
      "ty-a"
    ],
    [
      "▁fal",
      "se-a"
    ],
    [
      "3",
      "."
    ],
    [
      "▁cle",
      "an-a"
    ],
    [
      "ing",
      "."
    ],
    [
      "▁b",
      "urn"
    ],
    [
      "▁ne",
      "w"
    ],
    [
      "▁l",
      "o"
    ],
    [
      "▁s",
      "c"
    ],
    [
      "▁f",
      "ake-a"
    ],
    [
      "▁t",
      "im"
    ],
    [
      "▁d",
      "angerous-a"
    ],
    [
      "▁tru",
      "e-a"
    ],
    [
      "▁eas",
      "y-a"
    ],
    [
      "9",
      "."
    ],
    [
      "▁p",
      "r"
    ],
    [
      "t",
      "er"
    ],
    [
      "▁s",
      "low"
    ],
    [
      "7",
      "."
    ],
    [
      "o",
      "p"
    ],
    [
      "▁l",
      "at"
    ],
    [
      "▁lat",
      "e-e"
    ],
    [
      "▁qu",
      "iet"
    ],
    [
      "▁quiet",
      "-e"
    ],
    [
      "▁s",
      "ay"
    ],
    [
      "1",
      "."
    ],
    [
      "i",
      "en"
    ],
    [
      "▁gr",
      "oun"
    ],
    [
      "▁tru",
      "e-e"
    ],
    [
      "▁qu",
      "ick"
    ],
    [
      "▁quick",
      "-e"
    ],
    [
      "▁now",
      "-e"
    ],
    [
      "▁so",
      "ft"
    ],
    [
      "▁soft",
      "-e"
    ],
    [
      "▁soon",
      "-e"
    ],
    [
      "▁happ",
      "y-e"
    ],
    [
      "▁slow",
      "-e"
    ],
    [
      "▁saf",
      "e-e"
    ],
    [
      "▁careful",
      "-e"
    ],
    [
      "▁loud",
      "-e"
    ],
    [
      "▁eas",
      "y-e"
    ],
    [
      "▁d",
      "o"
    ],
    [
      "c",
      "e"
    ],
    [
      "▁sum",
      "m"
    ],
    [
      "▁r",
      "ain"
    ],
    [
      "▁cor",
      "re"
    ],
    [
      "▁corre",
      "ct"
    ],
    [
      "▁correct",
      "-e"
    ],
    [
      "▁ear",
      "ly-e"
    ],
    [
      "▁ex",
      "am"
    ],
    [
      "▁exam",
      "ple"
    ],
    [
      "▁example",
      ":"
    ],
    [
      "▁mal-",
      "s"
    ],
    [
      "▁su",
      "d"
    ],
    [
      "▁sud",
      "den"
    ],
    [
      "▁sudden",
      "-e"
    ],
    [
      "il",
      "d"
    ],
    [
      "▁y",
      "ear"
    ],
    [
      "▁well",
      "-e"
    ],
    [
      "am",
      "e"
    ],
    [
      "▁d",
      "e"
    ],
    [
      "▁k",
      "now"
    ],
    [
      "▁wh",
      "ere"
    ],
    [
      "▁you",
      "."
    ],
    [
      "▁w",
      "ood"
    ],
    [
      "▁g",
      "o"
    ],
    [
      "▁r",
      "oot"
    ],
    [
      "▁w",
      "or"
    ],
    [
      "▁sp",
      "r"
    ],
    [
      "▁be",
      ":"
    ],
    [
      "▁logiko",
      "?"
    ],
    [
      "▁y",
      "el"
    ],
    [
      "▁yel",
      "low"
    ],
    [
      "▁mor",
      "n"
    ],
    [
      "u",
      "it"
    ],
    [
      "▁te",
      "ach"
    ],
    [
      "▁sp",
      "e"
    ],
    [
      "▁f",
      "ol"
    ],
    [
      "▁fol",
      "low"
    ],
    [
      "▁s",
      "al"
    ],
    [
      "▁d",
      "r"
    ],
    [
      "ing",
      ","
    ],
    [
      "ath",
      "er"
    ],
    [
      "▁b",
      "u"
    ],
    [
      "▁p",
      "ap"
    ],
    [
      "▁h",
      "ill"
    ],
    [
      "as",
      "s"
    ],
    [
      "▁p",
      "ut"
    ],
    [
      "▁e",
      "at"
    ],
    [
      "▁new",
      "s"
    ],
    [
      "▁m",
      "in"
    ],
    [
      "▁min",
      "ut"
    ],
    [
      "is",
      "h"
    ],
    [
      "▁stor",
      "y"
    ],
    [
      "▁ar",
      "t"
    ],
    [
      "▁nee",
      "d"
    ],
    [
      "▁le",
      "af"
    ],
    [
      "▁m",
      "ark"
    ],
    [
      "▁pl",
      "ant"
    ],
    [
      "▁bo",
      "il"
    ],
    [
      "▁en",
      "d"
    ],
    [
      "d",
      ","
    ],
    [
      "▁bl",
      "ac"
    ],
    [
      "▁col",
      "or"
    ],
    [
      "o",
      "d"
    ],
    [
      "▁n",
      "ight"
    ],
    [
      "d",
      "-a"
    ],
    [
      "▁meth",
      "od"
    ],
    [
      "▁method",
      ":"
    ],
    [
      "▁1",
      ":"
    ],
    [
      "▁2",
      ":"
    ],
    [
      "▁3",
      ":"
    ],
    [
      "▁4",
      ":"
    ],
    [
      "▁5",
      ":"
    ],
    [
      "▁6",
      ":"
    ],
    [
      "▁aut",
      "um"
    ],
    [
      "▁autum",
      "n"
    ],
    [
      "▁fr",
      "uit"
    ],
    [
      "▁st",
      "ar"
    ],
    [
      "e",
      "ct"
    ],
    [
      "▁bl",
      "u"
    ],
    [
      "un",
      "d"
    ],
    [
      "▁r",
      "iver"
    ],
    [
      "d",
      "om"
    ],
    [
      "▁g",
      "ive"
    ],
    [
      "on",
      "e"
    ],
    [
      "▁lo",
      "ve"
    ],
    [
      "▁win",
      "d"
    ],
    [
      "ou",
      "gh"
    ],
    [
      "▁free",
      "z"
    ],
    [
      "▁s",
      "k"
    ],
    [
      "▁sal",
      "t"
    ],
    [
      "▁f",
      "ish"
    ],
    [
      "i",
      "on"
    ],
    [
      "▁far",
      "m"
    ],
    [
      "▁h",
      "our"
    ],
    [
      "o",
      "s"
    ],
    [
      "▁g",
      "ar"
    ],
    [
      "▁earth",
      "."
    ],
    [
      "a",
      "b"
    ],
    [
      "▁happen",
      "."
    ],
    [
      "▁j",
      "u"
    ],
    [
      "▁w",
      "ar"
    ],
    [
      "▁mal-",
      "b"
    ],
    [
      "▁bu",
      "ild"
    ],
    [
      "▁ta",
      "."
    ],
    [
      "▁know",
      "le"
    ],
    [
      "▁knowle",
      "d"
    ],
    [
      "▁knowled",
      "g"
    ],
    [
      "▁lif",
      "e"
    ],
    [
      "c",
      "k"
    ],
    [
      "at",
      "e"
    ],
    [
      "▁wh",
      "o"
    ],
    [
      "▁h",
      "ear"
    ],
    [
      "▁bl",
      "oom"
    ],
    [
      "▁mean",
      "?"
    ],
    [
      "▁an",
      "im"
    ],
    [
      "▁anim",
      "al"
    ],
    [
      "▁h",
      "ot-a"
    ],
    [
      "▁remain",
      "."
    ],
    [
      "▁b",
      "an"
    ],
    [
      "▁m",
      "ist"
    ],
    [
      "▁10",
      ","
    ],
    [
      "▁fr",
      "ien"
    ],
    [
      "▁wh",
      "y"
    ],
    [
      "▁I",
      "."
    ],
    [
      "▁9",
      ","
    ],
    [
      "▁seem",
      "."
    ],
    [
      "m",
      "on"
    ],
    [
      "▁li",
      "b"
    ],
    [
      "▁lib",
      "r"
    ],
    [
      "▁libr",
      "ar"
    ],
    [
      "▁exist",
      "."
    ],
    [
      "▁a",
      "ir"
    ],
    [
      "▁f",
      "ut"
    ],
    [
      "▁h",
      "e"
    ],
    [
      "it",
      "al"
    ],
    [
      "▁le",
      "g"
    ],
    [
      "▁p",
      "ot"
    ],
    [
      "▁7",
      ","
    ],
    [
      "▁8",
      ","
    ],
    [
      "l",
      "."
    ],
    [
      "▁br",
      "an"
    ],
    [
      "▁bran",
      "ch"
    ],
    [
      "▁4",
      ","
    ],
    [
      "▁6",
      ","
    ],
    [
      "▁2",
      ","
    ],
    [
      "▁sea",
      "."
    ],
    [
      "▁we",
      "ather"
    ],
    [
      "▁mon",
      "th"
    ],
    [
      "▁dr",
      "in"
    ],
    [
      "▁3",
      ","
    ],
    [
      "▁re",
      "ad"
    ],
    [
      "▁1",
      "3"
    ],
    [
      "▁12",
      ","
    ],
    [
      "▁5",
      ","
    ],
    [
      "▁mal-",
      "th"
    ],
    [
      "▁how",
      "-m"
    ],
    [
      "▁how-m",
      "any"
    ],
    [
      "m",
      ","
    ],
    [
      "▁se",
      "c"
    ],
    [
      "▁sec",
      "on"
    ],
    [
      "▁e",
      "ven"
    ],
    [
      "▁deser",
      "t"
    ],
    [
      "▁is",
      "l"
    ],
    [
      "▁f",
      "i"
    ],
    [
      "▁fi",
      "el"
    ],
    [
      "▁drin",
      "k"
    ],
    [
      "o",
      ","
    ],
    [
      "f",
      "f"
    ],
    [
      "▁d",
      "ur"
    ],
    [
      "▁dur",
      "ing"
    ],
    [
      "▁wh",
      "ite"
    ],
    [
      "▁11",
      ","
    ],
    [
      "▁happ",
      "y-a"
    ],
    [
      "▁g",
      "l"
    ],
    [
      "▁p",
      "h"
    ],
    [
      "▁ar",
      "ound"
    ],
    [
      "▁cl",
      "iff"
    ],
    [
      "▁mal-",
      "d"
    ],
    [
      "▁p",
      "ast"
    ],
    [
      "p",
      "h"
    ],
    [
      "e",
      "y"
    ],
    [
      "4",
      ","
    ],
    [
      "9",
      ","
    ],
    [
      "▁v",
      "al"
    ],
    [
      "▁me",
      "at"
    ],
    [
      "a",
      "u"
    ],
    [
      "au",
      "gh"
    ],
    [
      "▁re",
      "d"
    ],
    [
      "▁spe",
      "ak"
    ],
    [
      "▁blu",
      "e"
    ],
    [
      "▁st",
      "u"
    ],
    [
      "▁trun",
      "k"
    ],
    [
      "6",
      ","
    ],
    [
      "en",
      "."
    ],
    [
      "8",
      ","
    ],
    [
      "▁s",
      "in"
    ],
    [
      "▁sin",
      "ce"
    ],
    [
      "▁mal-",
      "w"
    ],
    [
      "-",
      "f"
    ],
    [
      "▁p",
      "e"
    ],
    [
      "▁thin",
      "k"
    ],
    [
      "▁freez",
      "e"
    ],
    [
      "▁tim",
      "e"
    ],
    [
      "▁gr",
      "ass"
    ],
    [
      "▁pr",
      "o"
    ],
    [
      "r",
      "oom"
    ],
    [
      "1",
      ","
    ],
    [
      "5",
      ","
    ],
    [
      "j",
      "ect"
    ],
    [
      "▁mel",
      "t"
    ],
    [
      "▁v",
      "ill"
    ],
    [
      "▁vill",
      "ag"
    ],
    [
      "7",
      ","
    ],
    [
      "a",
      "ir"
    ],
    [
      "▁minut",
      "e."
    ],
    [
      "r",
      "y"
    ],
    [
      "2",
      ","
    ],
    [
      "▁dre",
      "am"
    ],
    [
      "▁s",
      "ame"
    ],
    [
      "▁un",
      "t"
    ],
    [
      "▁unt",
      "il"
    ],
    [
      "▁n",
      "oon"
    ],
    [
      "ee",
      "p"
    ],
    [
      "▁k",
      "it"
    ],
    [
      "▁kit",
      "ch"
    ],
    [
      "3",
      ","
    ],
    [
      "▁de",
      "ath"
    ],
    [
      "b",
      "."
    ],
    [
      "▁win",
      "ter."
    ],
    [
      "▁3",
      "0"
    ],
    [
      "▁fr",
      "ost"
    ],
    [
      "q",
      "u"
    ],
    [
      "▁th",
      "und"
    ],
    [
      "▁1",
      "4"
    ],
    [
      "▁n",
      "ame"
    ],
    [
      "▁ju",
      "st"
    ],
    [
      "▁f",
      "am"
    ],
    [
      "at",
      "o"
    ],
    [
      "▁mos",
      "s"
    ],
    [
      "▁w",
      "al"
    ],
    [
      "▁c",
      "it"
    ],
    [
      "▁free",
      "dom"
    ],
    [
      "▁mark",
      "et"
    ],
    [
      "▁f",
      "act"
    ],
    [
      "▁r",
      "o"
    ],
    [
      "▁fer",
      "n"
    ],
    [
      "▁mountain",
      "."
    ],
    [
      "▁h",
      "os"
    ],
    [
      "▁hos",
      "p"
    ],
    [
      "▁m",
      "ach"
    ],
    [
      "▁2",
      "4"
    ],
    [
      "▁oth",
      "er"
    ],
    [
      "▁pap",
      "er"
    ],
    [
      "▁2",
      "0"
    ],
    [
      "▁flow",
      "er"
    ],
    [
      "▁pro",
      "ces"
    ],
    [
      "▁proces",
      "s"
    ],
    [
      "▁mus",
      "h"
    ],
    [
      "▁te",
      "m"
    ],
    [
      "▁spr",
      "ing,"
    ],
    [
      "▁in",
      "str"
    ],
    [
      "▁p",
      "ath"
    ],
    [
      "▁3",
      "6"
    ],
    [
      "▁br",
      "ight-a"
    ],
    [
      "▁bod",
      "y."
    ],
    [
      "▁cl",
      "oth"
    ],
    [
      "▁grow",
      "."
    ],
    [
      "▁sh",
      "ine"
    ],
    [
      "▁k",
      "in"
    ],
    [
      "▁wind",
      "ow"
    ],
    [
      "▁4",
      "0"
    ],
    [
      "▁year",
      "."
    ],
    [
      "▁1",
      "8"
    ],
    [
      "▁m",
      "an"
    ],
    [
      "▁summ",
      "er,"
    ],
    [
      "▁muse",
      "um"
    ],
    [
      "▁br",
      "id"
    ],
    [
      "▁brid",
      "g"
    ],
    [
      "▁1",
      "6"
    ],
    [
      "▁c",
      "al"
    ],
    [
      "▁stor",
      "m"
    ],
    [
      "▁war",
      "m"
    ],
    [
      "▁with",
      "er"
    ],
    [
      "▁1",
      "5"
    ],
    [
      "▁6",
      "0"
    ],
    [
      "▁knowledg",
      "e"
    ],
    [
      "a",
      "."
    ],
    [
      "▁pl",
      "ace"
    ],
    [
      "▁mush",
      "room"
    ],
    [
      "▁sch",
      "ool"
    ],
    [
      "▁hour",
      "."
    ],
    [
      "▁but",
      "ter"
    ],
    [
      "▁al",
      "th"
    ],
    [
      "▁alth",
      "ough"
    ],
    [
      "▁s",
      "w"
    ],
    [
      "▁s",
      "ad"
    ],
    [
      "▁mal-",
      "c"
    ],
    [
      "▁mach",
      "ine"
    ],
    [
      "▁th",
      "ere"
    ],
    [
      "▁there",
      "fore"
    ],
    [
      "▁st",
      "one"
    ],
    [
      "▁de",
      "g"
    ],
    [
      "▁4",
      "8"
    ],
    [
      "▁fut",
      "ure."
    ],
    [
      "▁prog",
      "r"
    ],
    [
      "▁7",
      "2"
    ],
    [
      "▁sk",
      "y"
    ],
    [
      "▁lesson",
      "."
    ],
    [
      "▁music",
      "."
    ],
    [
      "▁sc",
      "ient"
    ],
    [
      "▁scient",
      "ist"
    ],
    [
      "▁th",
      "r"
    ],
    [
      "▁thr",
      "ough"
    ],
    [
      "▁hel",
      "p"
    ],
    [
      "▁h",
      "igh"
    ],
    [
      "▁we",
      ":"
    ],
    [
      "▁kin",
      "d."
    ],
    [
      "un",
      "g"
    ],
    [
      "▁summ",
      "er."
    ],
    [
      "▁autumn",
      ","
    ],
    [
      "▁six",
      "t"
    ],
    [
      "▁sixt",
      "y"
    ],
    [
      "▁be",
      "?"
    ],
    [
      "▁sc",
      "ien"
    ],
    [
      "▁d",
      "augh"
    ],
    [
      "▁k",
      "ey"
    ],
    [
      "▁sc",
      "reen"
    ],
    [
      "-",
      "t"
    ],
    [
      "▁ver",
      "b."
    ],
    [
      "▁in",
      "t"
    ],
    [
      "▁int",
      "o"
    ],
    [
      "▁su",
      "ff"
    ],
    [
      "▁suff",
      "ix"
    ],
    [
      "▁ir",
      "on"
    ],
    [
      "▁ow",
      "n"
    ],
    [
      "▁minut",
      "e"
    ],
    [
      "▁star",
      "."
    ],
    [
      "▁h",
      "ole"
    ],
    [
      "▁secon",
      "d."
    ],
    [
      "▁night",
      "."
    ],
    [
      "▁morn",
      "ing"
    ],
    [
      "▁5",
      "0"
    ],
    [
      "es",
      "s"
    ],
    [
      "▁art",
      "ist"
    ],
    [
      "▁li",
      "e"
    ],
    [
      "▁8",
      "0"
    ],
    [
      "▁7",
      "0"
    ],
    [
      "▁animal",
      ","
    ],
    [
      "▁w",
      "om"
    ],
    [
      "▁wom",
      "an"
    ],
    [
      "▁n",
      "oun"
    ],
    [
      "▁st",
      "op"
    ],
    [
      "▁light",
      "."
    ],
    [
      "▁com",
      "mon"
    ],
    [
      "▁common",
      "-a"
    ],
    [
      "▁on",
      "ce,"
    ],
    [
      "▁villag",
      "e,"
    ],
    [
      "▁5",
      "6"
    ],
    [
      "▁co",
      "ver"
    ],
    [
      "▁b",
      "ark"
    ],
    [
      "▁h",
      "op"
    ],
    [
      "▁be",
      "g"
    ],
    [
      "▁thund",
      "er"
    ],
    [
      "p",
      "er"
    ],
    [
      "▁c",
      "ave"
    ],
    [
      "▁stu",
      "dent"
    ],
    [
      "▁far",
      "-a"
    ],
    [
      "▁an",
      "c"
    ],
    [
      "▁h",
      "ouse,"
    ],
    [
      "▁br",
      "ain"
    ],
    [
      "or",
      "."
    ],
    [
      "▁forest",
      ","
    ],
    [
      "▁s",
      "il"
    ],
    [
      "▁dol",
      "ph"
    ],
    [
      "▁dolph",
      "in"
    ],
    [
      "▁9",
      "0"
    ],
    [
      "▁frien",
      "d."
    ],
    [
      "▁6",
      "6"
    ],
    [
      "▁do",
      "ct"
    ],
    [
      "▁gl",
      "ass"
    ],
    [
      "▁mal-w",
      "ide-a"
    ],
    [
      "▁isl",
      "and"
    ],
    [
      "▁mal-th",
      "ick-a"
    ],
    [
      "▁frien",
      "d"
    ],
    [
      "▁s",
      "leep"
    ],
    [
      "▁mal-s",
      "h"
    ],
    [
      "▁mal-sh",
      "ort-a"
    ],
    [
      "▁h",
      "und"
    ],
    [
      "▁hund",
      "re"
    ],
    [
      "▁hundre",
      "d"
    ],
    [
      "▁b",
      "ab"
    ],
    [
      "▁5",
      "4"
    ],
    [
      "▁p",
      "ow"
    ],
    [
      "▁4",
      "2"
    ],
    [
      "▁instr",
      "um"
    ],
    [
      "▁instrum",
      "ent"
    ],
    [
      "n",
      "ess"
    ],
    [
      "▁3",
      "5"
    ],
    [
      "▁h",
      "ist"
    ],
    [
      "▁cl",
      "oud"
    ],
    [
      "▁2",
      "1"
    ],
    [
      "▁l",
      "ake"
    ],
    [
      "▁g",
      "ir"
    ],
    [
      "▁see",
      "d"
    ],
    [
      "▁mal-",
      "n"
    ],
    [
      "▁gar",
      "den"
    ],
    [
      "▁d",
      "an"
    ],
    [
      "▁w",
      "is"
    ],
    [
      "▁9",
      "9"
    ],
    [
      "▁val",
      "ley"
    ],
    [
      "▁mal-n",
      "arrow-a"
    ],
    [
      "▁f",
      "l"
    ],
    [
      "ar",
      "d,"
    ],
    [
      "▁4",
      "4"
    ],
    [
      "▁exist",
      ","
    ],
    [
      "▁r",
      "un"
    ],
    [
      "▁hosp",
      "ital"
    ],
    [
      "▁k",
      "n"
    ],
    [
      "▁mal-",
      "l"
    ],
    [
      "▁mal-l",
      "ong-a"
    ],
    [
      "a",
      "il"
    ],
    [
      "▁fin",
      "d"
    ],
    [
      "▁ret",
      "urn"
    ],
    [
      "▁anc",
      "ient"
    ],
    [
      "▁m",
      "ag"
    ],
    [
      "▁mag",
      "ic"
    ],
    [
      "▁2",
      "8"
    ],
    [
      "▁long",
      "-t"
    ],
    [
      "▁long-t",
      "im"
    ],
    [
      "▁long-tim",
      "e-ag"
    ],
    [
      "▁long-time-ag",
      "o,"
    ],
    [
      "▁fiel",
      "d"
    ],
    [
      "▁mal-b",
      "ig-a"
    ],
    [
      "▁2",
      "2"
    ],
    [
      "▁r",
      "ise"
    ],
    [
      "▁progr",
      "am"
    ],
    [
      "▁wis",
      "dom"
    ],
    [
      "▁mal-t",
      "all-a"
    ],
    [
      "▁7",
      "7"
    ],
    [
      "▁4",
      "5"
    ],
    [
      "▁cit",
      "y,"
    ],
    [
      "▁br",
      "oth"
    ],
    [
      "▁f",
      "ather"
    ],
    [
      "▁di",
      "e."
    ],
    [
      "▁mal-s",
      "m"
    ],
    [
      "▁mal-sm",
      "all-a"
    ],
    [
      "u",
      "s"
    ],
    [
      "▁tel",
      "l"
    ],
    [
      "▁en",
      "g"
    ],
    [
      "▁mal-th",
      "in"
    ],
    [
      "▁mal-thin",
      "-a"
    ],
    [
      "▁moth",
      "er"
    ],
    [
      "▁au",
      "x"
    ],
    [
      "▁aux",
      "il"
    ],
    [
      "▁auxil",
      "i"
    ],
    [
      "▁9",
      "6"
    ],
    [
      "▁leaf",
      "."
    ],
    [
      "▁burn",
      "."
    ],
    [
      "▁3",
      "3"
    ],
    [
      "▁list",
      "en"
    ],
    [
      "▁ro",
      "ad"
    ],
    [
      "▁than",
      "k"
    ],
    [
      "▁6",
      "3"
    ],
    [
      "▁for",
      "m"
    ],
    [
      "▁tomorrow",
      "."
    ],
    [
      "▁j",
      "o"
    ],
    [
      "▁t",
      "ire"
    ],
    [
      "▁1",
      "7"
    ],
    [
      "▁3",
      "2"
    ],
    [
      "▁8",
      "4"
    ],
    [
      "▁kitch",
      "en"
    ],
    [
      "▁ch",
      "ild"
    ],
    [
      "▁f",
      "oot"
    ],
    [
      "▁beg",
      "in"
    ],
    [
      "▁sad",
      "ness"
    ],
    [
      "▁2",
      "7"
    ],
    [
      "▁h",
      "ouse"
    ],
    [
      "▁snow",
      "."
    ],
    [
      "▁w",
      "as"
    ],
    [
      "▁was",
      "h"
    ],
    [
      "▁s",
      "and"
    ],
    [
      "▁fal",
      "l"
    ],
    [
      "▁a",
      "i"
    ],
    [
      "▁deg",
      "ree"
    ],
    [
      "▁summ",
      "er"
    ],
    [
      "▁l",
      "ang"
    ],
    [
      "▁lang",
      "u"
    ],
    [
      "▁langu",
      "ag"
    ],
    [
      "▁ban",
      "k"
    ],
    [
      "▁kn",
      "if"
    ],
    [
      "▁mon",
      "k"
    ],
    [
      "-",
      "qu"
    ],
    [
      "▁sh",
      "eep"
    ],
    [
      "▁-",
      "1"
    ],
    [
      "▁spr",
      "ing"
    ],
    [
      "▁br",
      "us"
    ],
    [
      "▁brus",
      "h"
    ],
    [
      "▁mel",
      "on"
    ],
    [
      "▁pe",
      "ach"
    ],
    [
      "▁tast",
      "e"
    ],
    [
      "▁8",
      "1"
    ],
    [
      "▁y",
      "es"
    ],
    [
      "▁m",
      "il"
    ],
    [
      "▁5",
      "5"
    ],
    [
      "▁8",
      "8"
    ],
    [
      "▁on",
      "ion"
    ],
    [
      "▁fact",
      "ory"
    ],
    [
      "▁4",
      "9"
    ],
    [
      "▁hel",
      "l"
    ],
    [
      "▁le",
      "mon"
    ],
    [
      "▁2",
      "5"
    ],
    [
      "▁wee",
      "k"
    ],
    [
      "▁leg",
      "."
    ],
    [
      "▁be",
      "an"
    ],
    [
      "▁tow",
      "er"
    ],
    [
      "▁gar",
      "l"
    ],
    [
      "▁garl",
      "ic"
    ],
    [
      "▁gl",
      "o"
    ],
    [
      "▁or",
      "ang"
    ],
    [
      "▁hear",
      "t"
    ],
    [
      "▁co",
      "at"
    ],
    [
      "▁scien",
      "ce"
    ],
    [
      "▁fr",
      "og"
    ],
    [
      "▁ac",
      "r"
    ],
    [
      "▁acr",
      "os"
    ],
    [
      "▁acros",
      "s"
    ],
    [
      "▁f",
      "o"
    ],
    [
      "▁h",
      "or"
    ],
    [
      "▁wor",
      "k"
    ],
    [
      "▁win",
      "ter"
    ],
    [
      "▁h",
      "at"
    ],
    [
      "▁c",
      "at"
    ],
    [
      "▁6",
      "4"
    ],
    [
      "▁go",
      "at"
    ],
    [
      "▁b",
      "as"
    ],
    [
      "▁bas",
      "k"
    ],
    [
      "▁bask",
      "et"
    ],
    [
      "▁b",
      "ag"
    ],
    [
      "▁noon",
      "."
    ],
    [
      "▁bot",
      "t"
    ],
    [
      "▁fut",
      "ure"
    ],
    [
      "▁n",
      "ut"
    ],
    [
      "▁tom",
      "ato"
    ],
    [
      "▁doct",
      "or"
    ],
    [
      "▁b",
      "ir"
    ],
    [
      "▁forest",
      "."
    ],
    [
      "▁4",
      "6"
    ],
    [
      "▁daugh",
      "ter"
    ],
    [
      "▁tow",
      "ar"
    ],
    [
      "▁towar",
      "d"
    ],
    [
      "▁p",
      "ig"
    ],
    [
      "▁butter",
      "f"
    ],
    [
      "▁sun",
      "."
    ],
    [
      "▁h",
      "air"
    ],
    [
      "▁cor",
      "n"
    ],
    [
      "▁s",
      "n"
    ],
    [
      "▁o",
      "ver"
    ],
    [
      "▁und",
      "er"
    ],
    [
      "▁su",
      "g"
    ],
    [
      "▁sug",
      "ar"
    ],
    [
      "▁en",
      "er"
    ],
    [
      "▁ener",
      "g"
    ],
    [
      "▁ch",
      "air"
    ],
    [
      "▁auxili",
      "ary."
    ],
    [
      "▁teach",
      "er"
    ],
    [
      "▁um",
      "b"
    ],
    [
      "▁umb",
      "rel"
    ],
    [
      "▁umbrel",
      "l"
    ],
    [
      "▁l",
      "and"
    ],
    [
      "▁land",
      "-f"
    ],
    [
      "▁land-f",
      "or"
    ],
    [
      "▁land-for",
      "m,"
    ],
    [
      "▁high",
      "er"
    ],
    [
      "▁window",
      "."
    ],
    [
      "▁ele",
      "ph"
    ],
    [
      "▁eleph",
      "ant"
    ],
    [
      "▁month",
      "."
    ],
    [
      "▁ch",
      "est"
    ],
    [
      "▁season",
      "."
    ],
    [
      "▁8",
      "6"
    ],
    [
      "▁m",
      "y"
    ],
    [
      "▁sp",
      "oon"
    ],
    [
      "▁e",
      "ag"
    ],
    [
      "▁co",
      "al"
    ],
    [
      "▁n",
      "ood"
    ],
    [
      "▁mus",
      "c"
    ],
    [
      "▁tal",
      "k"
    ],
    [
      "▁r",
      "ab"
    ],
    [
      "▁rab",
      "b"
    ],
    [
      "▁rabb",
      "it"
    ],
    [
      "▁p",
      "ant"
    ],
    [
      "▁pant",
      "s"
    ],
    [
      "▁bridg",
      "e"
    ],
    [
      "▁e",
      "g"
    ],
    [
      "▁eg",
      "g"
    ],
    [
      "▁tem",
      "ple"
    ],
    [
      "▁8",
      "5"
    ],
    [
      "▁even",
      "ing"
    ],
    [
      "▁4",
      "1"
    ],
    [
      "▁ban",
      "an"
    ],
    [
      "▁k",
      "eep"
    ],
    [
      "▁gol",
      "d"
    ],
    [
      "▁wh",
      "ich"
    ],
    [
      "▁sh",
      "o"
    ],
    [
      "▁s",
      "ister"
    ],
    [
      "▁al",
      "ong"
    ],
    [
      "▁gir",
      "l"
    ],
    [
      "▁pot",
      "ato"
    ],
    [
      "▁cl",
      "im"
    ],
    [
      "▁sun",
      "-"
    ],
    [
      "▁sun-",
      "l"
    ],
    [
      "▁sun-l",
      "ight"
    ],
    [
      "▁just",
      "ice"
    ],
    [
      "▁t",
      "ig"
    ],
    [
      "▁sou",
      "p"
    ],
    [
      "▁v",
      "is"
    ],
    [
      "▁vis",
      "it"
    ],
    [
      "▁co",
      "ff"
    ],
    [
      "▁wor",
      "d,"
    ],
    [
      "▁b",
      "in"
    ],
    [
      "▁bin",
      "d"
    ],
    [
      "▁tog",
      "eth"
    ],
    [
      "▁togeth",
      "er."
    ],
    [
      "▁2",
      "6"
    ],
    [
      "▁or",
      ":"
    ],
    [
      "▁ad",
      "ject"
    ],
    [
      "▁so",
      "ap"
    ],
    [
      "▁secon",
      "d"
    ],
    [
      "▁st",
      "om"
    ],
    [
      "▁stom",
      "ach"
    ],
    [
      "▁w",
      "ol"
    ],
    [
      "▁wol",
      "f"
    ],
    [
      "▁d",
      "u"
    ],
    [
      "▁ch",
      "ick"
    ],
    [
      "▁cent",
      "ury."
    ],
    [
      "▁o",
      "il"
    ],
    [
      "▁col",
      "d-a"
    ],
    [
      "▁bo",
      "y"
    ],
    [
      "▁2",
      "3"
    ],
    [
      "g",
      "et"
    ],
    [
      "▁c",
      "u"
    ],
    [
      "▁cu",
      "p"
    ],
    [
      "▁n",
      "o"
    ],
    [
      "▁stu",
      "d"
    ],
    [
      "▁energ",
      "y"
    ],
    [
      "▁6",
      "7"
    ],
    [
      "▁ab",
      "out"
    ],
    [
      "▁3",
      "4"
    ],
    [
      "▁l",
      "am"
    ],
    [
      "▁lam",
      "p"
    ],
    [
      "▁met",
      "al"
    ],
    [
      "c",
      "ite"
    ],
    [
      "▁hist",
      "ory"
    ],
    [
      "▁cop",
      "per"
    ],
    [
      "▁desert",
      "."
    ],
    [
      "▁season",
      ":"
    ],
    [
      "▁cliff",
      "."
    ],
    [
      "▁m",
      "ir"
    ],
    [
      "▁mir",
      "r"
    ],
    [
      "▁6",
      "2"
    ],
    [
      "▁yellow",
      "."
    ],
    [
      "▁fo",
      "x"
    ],
    [
      "▁salt",
      "."
    ],
    [
      "▁cent",
      "ury"
    ],
    [
      "▁-",
      "2"
    ],
    [
      "▁mal-s",
      "imple-a"
    ],
    [
      "▁clear",
      "-a"
    ],
    [
      "▁li",
      "qu"
    ],
    [
      "▁liqu",
      "id."
    ],
    [
      "▁ex",
      "cite"
    ],
    [
      "▁sil",
      "ver"
    ],
    [
      "a",
      "w"
    ],
    [
      "▁3",
      "9"
    ],
    [
      "▁plant",
      "."
    ],
    [
      "▁cal",
      "c"
    ],
    [
      "▁calc",
      "ul"
    ],
    [
      "▁calcul",
      "ate"
    ],
    [
      "▁d",
      "at"
    ],
    [
      "▁dat",
      "a."
    ],
    [
      "▁happen",
      ","
    ],
    [
      "▁mal-",
      "g"
    ],
    [
      "u",
      "e"
    ],
    [
      "▁autumn",
      "."
    ],
    [
      "▁bre",
      "ad"
    ],
    [
      "▁sk",
      "in"
    ],
    [
      "▁1",
      "9"
    ],
    [
      "▁pot",
      "."
    ],
    [
      "b",
      "y"
    ],
    [
      "▁mil",
      "k"
    ],
    [
      "▁2",
      "9"
    ],
    [
      "▁fam",
      "ily"
    ],
    [
      "▁meat",
      ","
    ],
    [
      "▁9",
      "5"
    ],
    [
      "▁6",
      "1"
    ],
    [
      "▁bo",
      "x"
    ],
    [
      "▁clim",
      "b"
    ],
    [
      "▁h",
      "am"
    ],
    [
      "▁ham",
      "m"
    ],
    [
      "▁mal-",
      "u"
    ],
    [
      "▁mal-u",
      "gly-a"
    ],
    [
      "▁fruit",
      ","
    ],
    [
      "▁6",
      "9"
    ],
    [
      "▁hop",
      "e"
    ],
    [
      "▁bloom",
      "."
    ],
    [
      "▁ar",
      "m,"
    ],
    [
      "▁4",
      "3"
    ],
    [
      "▁3",
      "1"
    ],
    [
      "▁hell",
      "o"
    ],
    [
      "▁8",
      "9"
    ],
    [
      "▁r",
      "ice,"
    ],
    [
      "▁he",
      "ad,"
    ],
    [
      "▁3",
      "7"
    ],
    [
      "▁4",
      "7"
    ],
    [
      "▁rain",
      "."
    ],
    [
      "▁7",
      "8"
    ],
    [
      "▁9",
      "7"
    ],
    [
      "▁re",
      "f"
    ],
    [
      "▁mal-w",
      "r"
    ],
    [
      "▁mal-wr",
      "ong-a"
    ],
    [
      "▁8",
      "2"
    ],
    [
      "▁mal-c",
      "le"
    ],
    [
      "▁mal-cle",
      "an-a"
    ],
    [
      "al",
      "th"
    ],
    [
      "▁pl",
      "ate."
    ],
    [
      "▁bet",
      "w"
    ],
    [
      "▁betw",
      "een"
    ],
    [
      "▁5",
      "3"
    ],
    [
      "▁he",
      "alth"
    ],
    [
      "▁mal-e",
      "as"
    ],
    [
      "▁mal-eas",
      "y-a"
    ],
    [
      "▁ar",
      "m"
    ],
    [
      "▁trunk",
      ","
    ],
    [
      "▁root",
      ","
    ],
    [
      "▁mal-",
      "re"
    ],
    [
      "▁7",
      "9"
    ],
    [
      "-qu",
      "ar"
    ],
    [
      "▁sh",
      "ir"
    ],
    [
      "▁shir",
      "t"
    ],
    [
      "▁c",
      "ake"
    ],
    [
      "▁screen",
      ","
    ],
    [
      "▁6",
      "8"
    ],
    [
      "▁monk",
      "ey"
    ],
    [
      "▁mal-",
      "r"
    ],
    [
      "▁mal-r",
      "ight-a"
    ],
    [
      "▁cloth",
      "."
    ],
    [
      "▁-",
      "3"
    ],
    [
      "▁mal-re",
      "al-a"
    ],
    [
      "▁r",
      "ide"
    ],
    [
      "▁5",
      "2"
    ],
    [
      "▁5",
      "7"
    ],
    [
      "▁mal-use",
      "ful-a"
    ],
    [
      "▁person",
      ","
    ],
    [
      "▁stud",
      "y,"
    ],
    [
      "▁l",
      "ung"
    ],
    [
      "▁broth",
      "er"
    ],
    [
      "▁remain",
      ","
    ],
    [
      "▁bod",
      "y,"
    ],
    [
      "▁west",
      "."
    ],
    [
      "▁pow",
      "er"
    ],
    [
      "▁9",
      "8"
    ],
    [
      "▁farm",
      "er"
    ],
    [
      "▁ju",
      "ice"
    ],
    [
      "▁mal-b",
      "e"
    ],
    [
      "▁mal-be",
      "autiful-a"
    ],
    [
      "▁mal-d",
      "ir"
    ],
    [
      "▁mal-dir",
      "ty-a"
    ],
    [
      "▁ve",
      "get"
    ],
    [
      "▁veget",
      "ab"
    ],
    [
      "▁vegetab",
      "le"
    ],
    [
      "▁ch",
      "eese"
    ],
    [
      "▁7",
      "6"
    ],
    [
      "▁bod",
      "y"
    ],
    [
      "▁3",
      "8"
    ],
    [
      "▁7",
      "5"
    ],
    [
      "▁branch",
      ","
    ],
    [
      "▁for",
      "k"
    ],
    [
      "▁l",
      "augh"
    ],
    [
      "▁ber",
      "ry"
    ],
    [
      "▁mu",
      "ch"
    ],
    [
      "▁key",
      "b"
    ],
    [
      "▁keyb",
      "o"
    ],
    [
      "▁keybo",
      "ard,"
    ],
    [
      "▁me",
      "m"
    ],
    [
      "▁mem",
      "ory,"
    ],
    [
      "▁process",
      "or."
    ],
    [
      "▁9",
      "1"
    ],
    [
      "▁9",
      "3"
    ],
    [
      "▁mal-d",
      "angerous-a"
    ],
    [
      "▁9",
      "2"
    ],
    [
      "▁z",
      "er"
    ],
    [
      "▁zer",
      "o"
    ],
    [
      "▁6",
      "5"
    ],
    [
      "▁mal-b",
      "ad-a"
    ],
    [
      "▁5",
      "9"
    ],
    [
      "▁n",
      "ail"
    ],
    [
      "▁banan",
      "a"
    ],
    [
      "▁9",
      "4"
    ],
    [
      "▁ne",
      "ck"
    ],
    [
      "▁5",
      "1"
    ],
    [
      "▁v",
      "o"
    ],
    [
      "▁vo",
      "ice"
    ],
    [
      "▁instrument",
      "."
    ],
    [
      "▁5",
      "8"
    ],
    [
      "▁mal-tr",
      "ue-a"
    ],
    [
      "w",
      "or"
    ],
    [
      "▁villag",
      "e"
    ],
    [
      "▁village",
      ":"
    ],
    [
      "▁orang",
      "e"
    ],
    [
      "▁mal-f",
      "al"
    ],
    [
      "▁mal-fal",
      "se-a"
    ],
    [
      "▁grap",
      "e"
    ],
    [
      "▁7",
      "4"
    ],
    [
      "▁tab",
      "le"
    ],
    [
      "▁have",
      "?"
    ],
    [
      "▁learn",
      ","
    ],
    [
      "▁bir",
      "d"
    ],
    [
      "-e",
      "j"
    ],
    [
      "e",
      "m"
    ],
    [
      "▁glo",
      "ve"
    ],
    [
      "▁lo",
      "ck"
    ],
    [
      "▁sn",
      "ake"
    ],
    [
      "▁mal-f",
      "ake-a"
    ],
    [
      "▁c",
      "ap"
    ],
    [
      "▁cap",
      "ital"
    ],
    [
      "▁capital",
      ":"
    ],
    [
      "▁bow",
      "l"
    ],
    [
      "▁7",
      "3"
    ],
    [
      "▁mal-",
      "im"
    ],
    [
      "▁mal-im",
      "portant-a"
    ],
    [
      "▁fl",
      "at-a"
    ],
    [
      "▁wal",
      "l"
    ],
    [
      "▁roo",
      "f"
    ],
    [
      "▁11",
      "0"
    ],
    [
      "▁cit",
      "y"
    ],
    [
      "▁city",
      ":"
    ],
    [
      "▁du",
      "ck"
    ],
    [
      "▁bel",
      "l"
    ],
    [
      "▁hor",
      "se"
    ],
    [
      "▁8",
      "3"
    ],
    [
      "▁umbrell",
      "a"
    ],
    [
      "▁tow",
      "n"
    ],
    [
      "▁town",
      ":"
    ],
    [
      "▁tw",
      "ent"
    ],
    [
      "▁twent",
      "y"
    ],
    [
      "▁twenty",
      "-f"
    ],
    [
      "▁twenty-f",
      "our"
    ],
    [
      "▁be",
      "d"
    ],
    [
      "▁wh",
      "ale"
    ],
    [
      "▁nood",
      "le"
    ],
    [
      "▁farm",
      "."
    ],
    [
      "▁mal-s",
      "af"
    ],
    [
      "▁mal-saf",
      "e-a"
    ],
    [
      "▁12",
      "0"
    ],
    [
      "▁seem",
      "?"
    ],
    [
      "▁ph",
      "one."
    ],
    [
      "▁pe",
      "ace"
    ],
    [
      "▁7",
      "1"
    ],
    [
      "▁jo",
      "y"
    ],
    [
      "▁mal-d",
      "ifficult-a"
    ],
    [
      "▁r",
      "ice"
    ],
    [
      "▁te",
      "a"
    ],
    [
      "▁8",
      "7"
    ],
    [
      "▁rop",
      "e"
    ],
    [
      "▁chick",
      "en"
    ],
    [
      "▁sh",
      "ad"
    ],
    [
      "▁shad",
      "ow"
    ],
    [
      "▁shadow",
      "."
    ],
    [
      "▁s",
      "it"
    ],
    [
      "▁ow",
      "l"
    ],
    [
      "▁butterf",
      "ly"
    ],
    [
      "▁coff",
      "ee"
    ],
    [
      "▁meat",
      "."
    ],
    [
      "▁bott",
      "le"
    ],
    [
      "▁com",
      "b"
    ],
    [
      "▁mal-g",
      "ood-a"
    ],
    [
      "▁fing",
      "er"
    ],
    [
      "▁tou",
      "ch"
    ],
    [
      "▁snow",
      ","
    ],
    [
      "▁h",
      "ung"
    ],
    [
      "▁w",
      "a"
    ],
    [
      "▁wa",
      "it"
    ],
    [
      "▁10",
      "8"
    ],
    [
      "▁sw",
      "eet-a"
    ],
    [
      "▁room",
      "."
    ],
    [
      "▁should",
      "er"
    ],
    [
      "▁remain",
      "?"
    ],
    [
      "▁change",
      "?"
    ],
    [
      "▁bu",
      "y"
    ],
    [
      "ag",
      "e."
    ],
    [
      "▁pl",
      "ate"
    ],
    [
      "▁wh",
      "eel"
    ],
    [
      "▁ref",
      "lect"
    ],
    [
      "▁bl",
      "ood"
    ],
    [
      "▁eag",
      "le"
    ],
    [
      "▁market",
      "."
    ],
    [
      "▁cand",
      "le"
    ],
    [
      "▁mirr",
      "or"
    ],
    [
      "▁eng",
      "ine"
    ],
    [
      "▁h",
      "oney"
    ],
    [
      "▁mal-c",
      "om"
    ],
    [
      "▁mal-com",
      "plex-a"
    ],
    [
      "▁let",
      "ter,"
    ],
    [
      "▁greet",
      "ing."
    ],
    [
      "▁mess",
      "age."
    ],
    [
      "▁let",
      "ter"
    ],
    [
      "▁en",
      "vel"
    ],
    [
      "▁envel",
      "op"
    ],
    [
      "▁envelop",
      "e."
    ],
    [
      "▁ol",
      "d"
    ],
    [
      "▁good",
      "by"
    ],
    [
      "▁goodby",
      "e"
    ],
    [
      "▁tig",
      "er"
    ],
    [
      "▁coun",
      "try"
    ],
    [
      "▁country",
      ":"
    ],
    [
      "▁so",
      "ck"
    ],
    [
      "▁exist",
      "?"
    ],
    [
      "▁act",
      "ion"
    ],
    [
      "▁sur",
      "f"
    ],
    [
      "▁surf",
      "ace."
    ],
    [
      "c",
      "or"
    ],
    [
      "▁sm",
      "el"
    ],
    [
      "▁c",
      "re"
    ],
    [
      "▁boil",
      ","
    ],
    [
      "▁museum",
      "."
    ],
    [
      "▁sho",
      "e"
    ],
    [
      "▁sel",
      "l"
    ],
    [
      "▁ph",
      "one"
    ],
    [
      "▁tooth",
      "."
    ],
    [
      "▁languag",
      "e,"
    ],
    [
      "▁wor",
      "d."
    ],
    [
      "▁ex",
      "er"
    ],
    [
      "▁exer",
      "c"
    ],
    [
      "▁exerc",
      "ise."
    ],
    [
      "▁mist",
      "ake."
    ],
    [
      "▁7",
      ":"
    ],
    [
      "▁ser",
      "ve"
    ],
    [
      "▁musc",
      "le"
    ],
    [
      "▁-",
      "4"
    ],
    [
      "▁-",
      "5"
    ],
    [
      "▁happen",
      "?"
    ],
    [
      "▁air",
      ","
    ],
    [
      "▁bre",
      "ath"
    ]
  ],
  "target_vocab_size": 1500
}